FFFFFFCD
00000005
FFFFFFDE
FFFFFFD3
FFFFFFCF
0000000E
00000022
FFFFFFF4
00000015
00000015
00000007
FFFFFFD1
FFFFFFD6
0000001C
0000001E
00000000
00000001
00000020
FFFFFFE8
00000022
00000024
00000022
FFFFFFD5
FFFFFFFF
FFFFFFD8
FFFFFFED
FFFFFFD8
0000000F
FFFFFFEB
FFFFFFD0
FFFFFFD8
00000020
00000018
FFFFFFDD
FFFFFFE1
FFFFFFF0
FFFFFFCA
0000000E
00000003
FFFFFFEC
00000019
00000019
0000001F
FFFFFFE2
00000016
00000005
00000008
0000000E
FFFFFFEB
00000009
00000016
00000008
00000010
FFFFFFD6
FFFFFFC6
00000019
0000002A
FFFFFFF1
FFFFFFF8
FFFFFFCF
0000002B
FFFFFFF0
00000001
0000000F